TRT-8501-EntropyCalibration2
Input: 7f800000
convolution_output48: 7f800000
activation_2/Relu:0: 7f800000
convolution_output46: 7f800000
convolution_output47: 7f800000
block_1a_relu_1/Relu:0: 7f800000
convolution_output45: 7f800000
add_9/add:0: 7f800000
block_1a_relu/Relu:0: 7f800000
convolution_output42: 7f800000
convolution_output44: 7f800000
block_1b_relu_1/Relu:0: 7f800000
convolution_output41: 7f800000
add_10/add:0: 7f800000
block_1b_relu/Relu:0: 7f800000
convolution_output35: 7f800000
convolution_output40: 7f800000
block_2a_relu_1/Relu:0: 7f800000
convolution_output34: 7f800000
add_11/add:0: 7f800000
block_2a_relu/Relu:0: 7f800000
convolution_output27: 7f800000
convolution_output31: 7f800000
block_2b_relu_1/Relu:0: 7f800000
convolution_output26: 7f800000
add_12/add:0: 7f800000
block_2b_relu/Relu:0: 7f800000
convolution_output33: 7f800000
convolution_output39: 7f800000
block_3a_relu_1/Relu:0: 7f800000
convolution_output32: 7f800000
add_13/add:0: 7f800000
block_3a_relu/Relu:0: 7f800000
convolution_output24: 7f800000
convolution_output30: 7f800000
block_3b_relu_1/Relu:0: 7f800000
convolution_output23: 7f800000
add_14/add:0: 7f800000
block_3b_relu/Relu:0: 7f800000
convolution_output38: 7f800000
convolution_output43: 7f800000
block_4a_relu_1/Relu:0: 7f800000
convolution_output37: 7f800000
add_15/add:0: 7f800000
block_4a_relu/Relu:0: 7f800000
convolution_output29: 7f800000
convolution_output36: 7f800000
block_4b_relu_1/Relu:0: 7f800000
convolution_output28: 7f800000
add_16/add:0: 7f800000
block_4b_relu/Relu:0: 7f800000
convolution_output21: 7f800000
yolo_expand_conv1_lrelu/LeakyRelu:0: 7f800000
convolution_output18: 783df61d
yolo_conv1_1_lrelu/LeakyRelu:0: 77fc17bf
convolution_output15: 780287fd
yolo_conv1_2_lrelu/LeakyRelu:0: 77d93d98
convolution_output12: 77ec0132
yolo_conv1_3_lrelu/LeakyRelu:0: 77ab80ef
convolution_output9: 77d85f41
yolo_conv1_4_lrelu/LeakyRelu:0: 77980703
convolution_output6: 779bdee1
yolo_conv1_5_lrelu/LeakyRelu:0: 7765bcb5
convolution_output3: 77900edc
convolution_output22: 775ae55f
yolo_conv1_6_lrelu/LeakyRelu:0: 7756ce8a
yolo_conv2_lrelu/LeakyRelu:0: 77574eb8
convolution_output: 781d91f0
upsample0/transpose_1:0: 77574eb8
bg_permute/transpose:0: 781d91f0
concatenate_3/concat:0: 7f800000
bg_reshape/Reshape:0: 781d91f0
convolution_output19: 7f800000
yolo_conv3_1_lrelu/LeakyRelu:0: 7f800000
convolution_output16: 77b6d774
yolo_conv3_2_lrelu/LeakyRelu:0: 77b6d774
(Unnamed Layer* 83) [Constant]_output: 3bfba075
bg_anchor/FirstDimTile/Tile:0: 3bfba075
convolution_output13: 77cda7b2
bg_anchor/Reshape:0: 3bfba075
yolo_conv3_3_lrelu/LeakyRelu:0: 77b125ea
encoded_bg/concat:0: 781d91f0
convolution_output10: 77f6cf92
yolo_conv3_4_lrelu/LeakyRelu:0: 77f6cf92
convolution_output7: 77eb145a
yolo_conv3_5_lrelu/LeakyRelu:0: 77eb489d
convolution_output4: 77f54d5b
convolution_output25: 7809990a
yolo_conv3_6_lrelu/LeakyRelu:0: 77d89d37
yolo_conv4_lrelu/LeakyRelu:0: 77e6b2e6
convolution_output1: 788487a9
upsample1/transpose_1:0: 77e6b2e6
md_permute/transpose:0: 788487a9
concatenate_4/concat:0: 7f800000
md_reshape/Reshape:0: 788487a9
convolution_output20: 7f800000
yolo_conv5_1_lrelu/LeakyRelu:0: 7f800000
convolution_output17: 780d3153
yolo_conv5_2_lrelu/LeakyRelu:0: 780d3153
(Unnamed Layer* 116) [Constant]_output: 3bfeda4f
md_anchor/FirstDimTile/Tile:0: 3bfeda4f
convolution_output14: 78030d82
md_anchor/Reshape:0: 3bfeda4f
yolo_conv5_3_lrelu/LeakyRelu:0: 780f1be4
encoded_md/concat:0: 788487a9
convolution_output11: 77fc9854
yolo_conv5_4_lrelu/LeakyRelu:0: 77fc5906
convolution_output8: 7801071e
yolo_conv5_5_lrelu/LeakyRelu:0: 77c48876
convolution_output5: 77f4d328
yolo_conv5_6_lrelu/LeakyRelu:0: 77b08b3e
convolution_output2: 78916f1c
sm_permute/transpose:0: 78916f1c
sm_reshape/Reshape:0: 78916f1c
(Unnamed Layer* 141) [Constant]_output: 3bfbb551
sm_anchor/FirstDimTile/Tile:0: 3bfbb551
sm_anchor/Reshape:0: 3bfbb551
encoded_sm/concat:0: 78916f1c
encoded_detections/concat:0: 788487a9
box/Reshape:0: 788487a9
cls/Reshape:0: 788487a9
box/Reshape:0_cropping0: 3c003b9d
box/Reshape:0_cropping01: 3c003b9d
box/Reshape:0_cropping02: 394e7687
box/Reshape:0_cropping03: 3af00153
box/Reshape:0_cropping04: 394e7687
box/Reshape:0_cropping05: 3a8e3ff2
box/Reshape:0_cropping06: 77850eff
box/Reshape:0_cropping07: 7729175e
box/Reshape:0_cropping08: 774df1d7
box/Reshape:0_cropping09: 76ced234
cls/Reshape:0_cropping0: 788487a9
cls/Reshape:0_cropping01: 78916f1c
box/Sigmoid_1:0: 3c010a14
box/Exp_1:0: 7f800000
box/Sigmoid:0: 3c010a14
box/Exp:0: 7f800000
cls/Sigmoid:0: 3c010a14
cls/Sigmoid_1:0: 3c010a14
box/mul_1:0: 38503a0e
box/mul_3:0: 7f800000
box/mul:0: 38503a0e
box/mul_2:0: 7f800000
cls: 3c010a14
box/add_1:0: 3c0058b1
(Unnamed Layer* 402) [Shuffle]_output: 3b810a14
box/mul_4:0: 7f800000
box/add:0: 3c0058b1
(Unnamed Layer* 406) [Shuffle]_output: 3b810a14
box/mul_6:0: 7f800000
box/sub:0: 7f800000
box/sub_1:0: 7f800000
box/add_2:0: 7f800000
box/add_3:0: 7f800000
box: 7f800000
BatchedNMS_1: 3a4f1e3c
BatchedNMS_2: 3c010a14
BatchedNMS_3: 3d214c99
