TRT-8501-EntropyCalibration2
Input: 4000890a
convolution_output48: 3d40dad3
activation_2/Relu:0: 3d40dad3
convolution_output46: 3d688602
convolution_output47: 3d877acf
block_1a_relu_1/Relu:0: 3cdaae8d
convolution_output45: 3d43ab8f
add_9/add:0: 3e0b4203
block_1a_relu/Relu:0: 3d5412f0
convolution_output42: 3d46dd50
convolution_output44: 3d7bacab
block_1b_relu_1/Relu:0: 3ce46434
convolution_output41: 3db53883
add_10/add:0: 3ddf7a82
block_1b_relu/Relu:0: 3d9fd8cc
convolution_output35: 3d2867f7
convolution_output40: 3d7d65f7
block_2a_relu_1/Relu:0: 3cffab2e
convolution_output34: 3d8ae89f
add_11/add:0: 3ddc4ec6
block_2a_relu/Relu:0: 3d5c7200
convolution_output27: 3d78e32f
convolution_output31: 3d531c24
block_2b_relu_1/Relu:0: 3ce1063b
convolution_output26: 3dc2ce83
add_12/add:0: 3db5af86
block_2b_relu/Relu:0: 3d923f80
convolution_output33: 3d1e76a1
convolution_output39: 3d37389f
block_3a_relu_1/Relu:0: 3d3e87ee
convolution_output32: 3d8b0834
add_13/add:0: 3db8f411
block_3a_relu/Relu:0: 3d8157b2
convolution_output24: 3d73e361
convolution_output30: 3d4a0fac
block_3b_relu_1/Relu:0: 3d4dbb41
convolution_output23: 3dadec7c
add_14/add:0: 3dd8a932
block_3b_relu/Relu:0: 3d8f0fdd
convolution_output38: 3d7d7707
convolution_output43: 3d6e016b
block_4a_relu_1/Relu:0: 3d0da423
convolution_output37: 3d99b650
add_15/add:0: 3de17697
block_4a_relu/Relu:0: 3d0c959c
convolution_output29: 3dd03835
convolution_output36: 3d596e52
block_4b_relu_1/Relu:0: 3cf2df03
convolution_output28: 3e58d6db
add_16/add:0: 3e9a429e
block_4b_relu/Relu:0: 3e3db3bf
convolution_output21: 3da176db
yolo_expand_conv1_lrelu/LeakyRelu:0: 3d219568
convolution_output18: 3da42e9a
yolo_conv1_1_lrelu/LeakyRelu:0: 3d17f7e7
convolution_output15: 3d9ad7a8
yolo_conv1_2_lrelu/LeakyRelu:0: 3d1057d1
convolution_output12: 3d84a3de
yolo_conv1_3_lrelu/LeakyRelu:0: 3d03cb60
convolution_output9: 3d77f282
yolo_conv1_4_lrelu/LeakyRelu:0: 3cff7422
convolution_output6: 3d30a5ae
yolo_conv1_5_lrelu/LeakyRelu:0: 3cf19a6b
convolution_output3: 3d4ec8ff
convolution_output22: 3d2e62ad
yolo_conv1_6_lrelu/LeakyRelu:0: 3cec043c
yolo_conv2_lrelu/LeakyRelu:0: 3cea3d0c
convolution_output: 3e225a56
upsample0/transpose_1:0: 3cea3d0c
bg_permute/transpose:0: 3e225a56
concatenate_3/concat:0: 3d208f6e
bg_reshape/Reshape:0: 3e225a56
convolution_output19: 3d4b5f46
yolo_conv3_1_lrelu/LeakyRelu:0: 3cf9a030
convolution_output16: 3d500ac9
yolo_conv3_2_lrelu/LeakyRelu:0: 3cf6e9f1
(Unnamed Layer* 83) [Constant]_output: 3bfba075
bg_anchor/FirstDimTile/Tile:0: 3bfba075
convolution_output13: 3d4dd539
bg_anchor/Reshape:0: 3bfba075
yolo_conv3_3_lrelu/LeakyRelu:0: 3cf3ae8e
encoded_bg/concat:0: 3e130001
convolution_output10: 3d5149c2
yolo_conv3_4_lrelu/LeakyRelu:0: 3cde8813
convolution_output7: 3d34d571
yolo_conv3_5_lrelu/LeakyRelu:0: 3ce210f3
convolution_output4: 3d4300ec
convolution_output25: 3d856162
yolo_conv3_6_lrelu/LeakyRelu:0: 3cef852b
yolo_conv4_lrelu/LeakyRelu:0: 3d16ba77
convolution_output1: 3e421b7a
upsample1/transpose_1:0: 3d16ba77
md_permute/transpose:0: 3e421b7a
concatenate_4/concat:0: 3d562de9
md_reshape/Reshape:0: 3e421b7a
convolution_output20: 3d42b26d
yolo_conv5_1_lrelu/LeakyRelu:0: 3d0341f1
convolution_output17: 3d29ded1
yolo_conv5_2_lrelu/LeakyRelu:0: 3cf3e8ef
(Unnamed Layer* 116) [Constant]_output: 3bfeda4f
md_anchor/FirstDimTile/Tile:0: 3bfeda4f
convolution_output14: 3d37a92b
md_anchor/Reshape:0: 3bfeda4f
yolo_conv5_3_lrelu/LeakyRelu:0: 3cfcc40f
encoded_md/concat:0: 3e0d8591
convolution_output11: 3d165ce7
yolo_conv5_4_lrelu/LeakyRelu:0: 3cc00680
convolution_output8: 3d29fcc4
yolo_conv5_5_lrelu/LeakyRelu:0: 3d0b7635
convolution_output5: 3d78e098
yolo_conv5_6_lrelu/LeakyRelu:0: 3d2b63d3
convolution_output2: 3e1c7e44
sm_permute/transpose:0: 3e1c7e44
sm_reshape/Reshape:0: 3e1c7e44
(Unnamed Layer* 141) [Constant]_output: 3bfbb551
sm_anchor/FirstDimTile/Tile:0: 3bfbb551
sm_anchor/Reshape:0: 3bfbb551
encoded_sm/concat:0: 3e136bd1
encoded_detections/concat:0: 3e136bd1
box/Reshape:0: 3e136bd1
cls/Reshape:0: 3e136bd1
box/Reshape:0_cropping0: 3c003b9d
box/Reshape:0_cropping01: 3c003b9d
box/Reshape:0_cropping02: 394e7687
box/Reshape:0_cropping03: 3af00153
box/Reshape:0_cropping04: 394e7687
box/Reshape:0_cropping05: 3a8e3ff2
box/Reshape:0_cropping06: 3c8f9bc4
box/Reshape:0_cropping07: 3c5d20bb
box/Reshape:0_cropping08: 3c613d09
box/Reshape:0_cropping09: 3c8a10f2
cls/Reshape:0_cropping0: 3dbde742
cls/Reshape:0_cropping01: 3e286bdb
box/Sigmoid_1:0: 3bf3bdcb
box/Exp_1:0: 3d06d7c3
box/Sigmoid:0: 3bdbea99
box/Exp:0: 3d8a40a5
cls/Sigmoid:0: 3c011201
cls/Sigmoid_1:0: 3a957d8a
box/mul_1:0: 391806e2
box/mul_3:0: 3ac54d86
box/mul:0: 39320cd6
box/mul_2:0: 3b2aabad
cls: 3b3c7f7f
box/add_1:0: 3c1b0f03
(Unnamed Layer* 402) [Shuffle]_output: 3b810a14
box/mul_4:0: 3a454d86
box/add:0: 3c1ad584
(Unnamed Layer* 406) [Shuffle]_output: 3b810a14
box/mul_6:0: 3aaaabad
box/sub:0: 3c1ab05d
box/sub_1:0: 3c155467
box/add_2:0: 3c194607
box/add_3:0: 3c0e6678
box: 3c13aa3d
BatchedNMS_1: 3c010a14
BatchedNMS_2: 3bb6550c
BatchedNMS_3: 3d214c99
